[PAD]
[UNK]
[CLS]
[MASK]
[SEP]
!
"
#
$
%
&
'
(
)
*
+
,
-
.
/
:
;
<
=
>
?
@
[
\
]
^
_
`
a
b
c
d
e
f
g
h
i
j
k
l
m
n
o
p
q
r
s
t
u
v
w
x
y
z
{
|
}
~
¡
¤
§
ª
«
®
±
·
»
½
¿
×
ø
đ
ı
ŋ
ƒ
ɘ
ə
ɢ
ɩ
ɪ
ɱ
ɴ
ʀ
ʃ
ʌ
ʏ
ʙ
ʜ
ˈ
ː
α
β
δ
ε
ν
ο
ρ
σ
τ
υ
ψ
ω
а
в
д
е
и
м
н
р
т
у
х
я
є
ғ
ҽ
נ
ا
ب
ة
ت
ث
ج
خ
ر
س
ع
ف
ق
ك
ل
م
ن
ه
و
ي
ः
अ
आ
इ
ई
उ
ऊ
ऋ
ऍ
ऎ
ए
ऐ
ऑ
ऒ
ओ
औ
क
ख
ग
घ
ङ
च
छ
ज
झ
ञ
ट
ठ
ड
ढ
ण
त
थ
द
ध
न
प
फ
ब
भ
म
य
र
ल
ळ
व
श
ष
स
ह
ऽ
ा
ि
ी
ॉ
ॊ
ो
ौ
ॐ
।
॥
॰
એ
ક
જ
ડ
ણ
ત
દ
ન
પ
બ
ભ
મ
ય
ર
વ
ષ
સ
હ
ા
િ
ી
ો
அ
க
ண
ன
ய
ல
ா
ி
ூ
ே
ை
๏
ღ
ᴀ
ᴄ
ᴇ
ᴋ
ᴏ
ᴛ
ᴡ
–
—
‘
’
“
”
•
…
‼
€
₹
⃣
℅
ℓ
™
←
↑
→
↔
−
√
∩
≈
⊙
⌐
⌚
⏩
⏪
⏰
─
═
║
╦
╭
╮
■
▶
●
★
☆
☕
☝
☠
☮
☺
♀
♂
♡
♢
♣
♥
♦
♨
♪
♻
⚔
⚠
⚡
⚽
⛳
⛽
✅
✊
✋
✌
✍
✔
✨
✪
❌
❓
❕
❗
❤
❥
➖
➡
➽
⭐
⭕
》
了
他
哪
在
擊
攻
裡
︶
︿
（
）
？
🃏
🆔
🇮
🇰
🇱
🇲
🇳
🇵
🇸
🇺
🌀
🌄
🌊
🌋
🌍
🌎
🌏
🌐
🌝
🌞
🌟
🌱
🌴
🌵
🌶
🌷
🌸
🌹
🌺
🌻
🌾
🍀
🍁
🍂
🍄
🍓
🍟
🍭
🍰
🍺
🍼
🎀
🎁
🎂
🎃
🎅
🎈
🎉
🎊
🎎
🎏
🎓
🎖
🎤
🎥
🎩
🎬
🎭
🎯
🎵
🎶
🏀
🏂
🏃
🏅
🏇
🏓
🏟
🏠
🏡
🏢
🏥
🏨
🏪
🏯
🏹
🏻
🏼
🏽
🏿
🐂
🐄
🐆
🐎
🐐
🐒
🐔
🐕
🐗
🐘
🐛
🐜
🐝
🐟
🐡
🐣
🐧
🐩
🐪
🐫
🐮
🐯
🐰
🐱
🐵
🐶
🐷
🐸
🐹
🐺
🐻
🐼
👁
👂
👃
👄
👅
👆
👇
👈
👉
👊
👋
👌
👍
👎
👏
👐
👞
👤
👦
👨
👩
👪
👫
👮
👯
👱
👲
👳
👵
👶
👷
👸
👹
👺
👻
👼
👽
👾
👿
💀
💂
💃
💊
💍
💎
💐
💓
💔
💕
💖
💘
💙
💚
💛
💜
💝
💞
💡
💢
💣
💤
💥
💦
💩
💪
💭
💯
💰
💴
💵
💶
💻
💿
📀
📆
📝
📞
📟
📠
📢
📮
📱
📲
📸
📺
🔊
🔎
🔔
🔘
🔛
🔜
🔥
🔪
🔫
🔰
🔴
🔶
🕉
🕗
🕚
🖒
🖕
🗣
🗳
😀
😁
😂
😃
😄
😅
😆
😇
😈
😉
😊
😋
😌
😍
😎
😏
😐
😑
😒
😓
😔
😕
😖
😗
😘
😙
😚
😛
😜
😝
😞
😟
😠
😡
😢
😣
😤
😥
😨
😩
😪
😫
😬
😭
😮
😯
😰
😱
😲
😳
😴
😵
😶
😷
😸
😹
😺
😻
😼
😽
🙀
🙁
🙂
🙃
🙄
🙅
🙈
🙉
🙊
🙋
🙌
🙍
🙏
🚅
🚓
🚝
🚥
🚨
🚩
🚬
🚲
🚴
🚶
🚷
🚾
🛩
🤐
🤑
🤓
🤔
🤗
🤘
🤣
🤷
🤺
🤼
🥊
🦁
🦋
##h
##a
##s
##y
##o
##d
##r
##e
##g
##l
##i
##n
##c
##k
##ल
##ि
##य
##ा
##f
##u
##t
##j
##m
##👩
##p
##ख
##ओ
##भ
##क
##ष
##र
##w
##b
##ग
##ब
##💀
##न
##ह
##ी
##त
##ो
##v
##व
##द
##श
##ए
##ड
##ध
##स
##प
##ट
##z
##ज
##थ
##😎
##😃
##😁
##ण
##x
##ः
##म
##ई
##😒
##😑
##फ
##╦
##═
##─
##च
##👽
##ौ
##इ
##💥
##😂
##q
##ढ
##झ
##😊
##उ
##🐱
##💙
##📢
##ठ
##🚩
##ऊ
##छ
##😏
##😆
##ॉ
##📱
##आ
##ळ
##😍
##♡
##☆
##🤔
##अ
##👳
##👍
##🌟
##😬
##⃣
##ङ
##😣
##😢
##😡
##م
##ن
##घ
##😀
##м
##а
##и
##р
##👎
##🏿
##σ
##ω
##є
##я
##ʌ
##ʜ
##🤗
##ऐ
##🙏
##ɩ
##ʀ
##ɘ
##🐵
##🏽
##🇮
##🇳
##😉
##😘
##🏻
##😭
##👹
##➖
##ı
##🚨
##♂
##🖕
##👌
##😅
##▶
##ا
##ل
##ه
##⌚
##¤
##ᴡ
##ᴀ
##ɪ
##❌
##α
##ℓ
##✨
##☕
##😠
##😄
##😝
##🙉
##🙊
##🙈
##ॊ
##👈
##β
##☺
##😈
##و
##🤘
##ʏ
##🏼
##💪
##🌹
##║
##🔰
##н
##👤
##♨
##મ
##જ
##ા
##વ
##🐷
##🏇
##😞
##😓
##ञ
##😛
##❓
##👼
##⚔
##🌴
##❤
##ː
##ə
##😖
##😽
##🌵
##✊
##ك
##ر
##😲
##✌
##х
##е
##д
##у
##💶
##👮
##🙃
##😥
##🐩
##🔥
##✔
##💐
##🇰
##😐
##😇
##ŋ
##🐔
##💝
##💘
##😳
##😵
##−
##✍
##ક
##િ
##સ
##ત
##ન
##ો
##દ
##ી
##🃏
##👏
##👇
##₹
##😸
##🌍
##🏪
##🏟
##🚥
##🌋
##ᴏ
##ᴛ
##ᴇ
##🏓
##ي
##🍟
##ɴ
##ɢ
##♀
##😯
##🚴
##🎵
##😜
##👐
##🐆
##🐘
##🐪
##🐻
##🐼
##🐯
##🐡
##🐝
##🐫
##🐛
##🐜
##♥
##🎈
##🤣
##💩
##🇲
##😤
##ø
##ف
##س
##ق
##™
##ª
##ث
##🌺
##🏂
##औ
##😼
##😶
##હ
##બ
##👶
##ν
##👷
##∩
##╮
##📞
##😟
##😔
##🤼
##😪
##😫
##💯
##🎅
##🐟
##🐎
##📀
##😷
##🇸
##🇺
##☝
##★
##🤓
##😱
##😺
##💴
##💰
##🍂
##🎓
##💃
##🛩
##🙄
##🔫
##💕
##🎎
##т
##🔘
##ة
##✋
##👉
##🌀
##🤑
##🏀
##🏅
##🎬
##👄
##👿
##🤐
##💎
##💍
##ε
##😨
##😚
##😋
##💔
##ɱ
##👁
##👂
##👦
##😴
##😩
##❗
##ை
##×
##→
##←
##♣
##🌾
##ع
##👃
##ண
##ா
##💊
##🐣
##🌏
##🎉
##⚽
##🍼
##ҽ
##💖
##😰
##ூ
##ல
##ி
##ய
##ே
##🎤
##🙍
##🐮
##↔
##👊
##😕
##ણ
##💵
##đ
##🌝
##🐗
##υ
##👋
##🎯
##🎃
##ت
##ب
##🙂
##🐧
##💻
##ષ
##💦
##👲
##👯
##👫
##☠
##🍓
##🌱
##⚠
##ડ
##خ
##ج
##🎂
##🍰
##♻
##🇱
##😹
##🌶
##👞
##ऽ
##🐺
##🎖
##❕
##ય
##ર
##ˈ
##ʃ
##💛
##👆
##🔪
##🐒
##🙁
##📠
##📲
##💂
##🐹
##🙌
##🙅
##👺
##ar
##an
th
##in
##er
##at
##on
##al
##es
##en
##is
ha
##or
in
the
to
##ou
##hi
##ha
##ing
##ed
an
##it
is
##di
##ak
##ll
##re
##ot
##as
and
##ay
##om
##le
of
##am
hai
##ur
##ion
##ad
##ch
be
##ार
##us
ki
##ut
##ic
wh
ka
##ve
ko
##ow
##ir
##ol
##et
ch
##ent
se
you
##ist
on
re
##ान
##im
##ya
##या
for
kar
he
it
na
indi
ke
कर
##ct
##um
##ly
de
me
pr
##ab
st
##ah
##ig
ne
को
##id
##ik
sh
##og
mo
##st
are
go
की
not
का
ab
##un
पर
##ता
##op
##il
##ही
##ill
ja
##ver
##ce
##ne
##ta
##ge
##ना
##pp
##ind
ye
##od
##ess
हो
##ld
ma
pe
com
##ul
or
sa
##ere
pak
ba
##se
we
ho
और
##ation
##te
do
##ye
this
##ate
##ाल
##na
##ers
##and
##ith
that
su
india
##th
##ga
##ap
modi
with
con
##he
##istan
par
##har
as
nahi
ra
कि
un
le
will
##ment
all
##est
so
pakistan
jo
##ter
hi
have
bhi
they
##ra
bha
##ri
##one
##ust
नही
##ck
li
##la
man
aur
mar
ap
##jp
##ould
by
तो
ban
##pe
can
ar
##oun
bjp
but
fr
lo
##ht
##esh
no
##ike
at
indian
what
रह
##ry
us
##गा
cha
kh
##ti
##ला
tum
##uch
##are
wor
di
peop
##िक
hind
kr
who
भी
kya
##ore
ex
people
##री
जा
##os
from
al
your
mus
##ud
##ake
##ity
##ash
##ome
log
la
##दी
has
##ke
दि
##ort
##वा
##ia
##ath
don
##ant
##out
pol
##ale
##पन
##िस
rah
##ata
if
##ress
desh
##der
was
##यो
##िर
इस
aap
ter
##ise
##ती
nhi
##lim
am
##all
##ala
##aye
pro
like
sam
new
##ime
should
##िए
any
आप
ag
##ue
ही
##ty
##ard
up
##wa
ji
muslim
##mp
##ount
##ात
pa
po
हम
##ight
only
##ish
दश
##ाह
sab
fa
##my
en
our
sha
एक
##ाज
##ive
ev
just
tr
##ction
मो
sir
kuch
hum
##ok
##ice
##aj
their
##ाक
##li
##िन
ya
##up
अपन
now
##iv
cr
army
##ans
##ali
##ki
his
##kar
why
##िया
##कार
med
one
pl
res
##ee
##itic
##ाम
time
##ous
app
##kh
सर
ham
bhai
ac
about
count
hu
koi
##ide
bol
cong
ever
##ong
##ka
##ko
कया
ek
##ff
##िल
##कर
ga
##हा
##enge
bh
##end
##aya
news
there
##ast
##me
politic
लो
##ni
##ub
bad
##now
##😂😂
सम
##our
##सी
##ro
how
te
##ane
tak
whi
hot
##ally
rel
##ase
hindu
hain
media
mu
wo
them
मोदी
know
some
कम
##ies
अब
भार
good
##ble
oth
##ari
tu
sp
raha
##गर
##ली
##reat
liye
more
##ana
rahe
##ci
##ink
##haha
every
##तान
wa
जी
##so
##oney
country
sar
af
##ays
comm
money
##ese
relig
hog
सक
##दा
##alo
bec
him
सा
get
tha
congress
ky
##गी
then
ad
ना
##की
than
##ma
##ित
##ure
fir
har
##ine
##ence
aga
comp
see
लिए
gu
br
even
again
वाल
##gh
ver
##de
bo
when
per
##oth
also
pm
jaw
spe
##का
##ena
##नी
वि
##ang
work
##ie
other
दो
##ame
##pect
terr
सब
out
my
##को
##ति
baat
kill
aa
##ाय
##mir
exp
fe
##ara
gover
its
जो
##lo
वो
##ani
कोई
bah
ro
need
party
##art
लोग
mad
उस
kash
##ep
very
##ds
which
fo
she
पाक
govern
rs
##lic
min
str
gov
think
co
kis
say
right
सरकार
bet
भारत
##use
##eta
##रा
bank
mat
kha
nation
terror
happ
##िसतान
##ाद
##ism
bhar
##िय
##ons
act
gh
##ated
kashmir
##ati
supp
her
under
sol
ele
jan
##ars
##ance
##ote
##भी
##ag
ur
##ji
##fe
dekh
govt
sing
##ास
mil
cor
था
##ियो
apne
##ाई
sur
gr
रहा
##मी
कछ
चाह
दख
##ious
government
these
where
want
पाकिसतान
##hiye
##ass
bu
ni
##ber
kam
qu
उन
many
hoga
did
op
##to
##ree
तक
##टी
##सल
off
kab
##तर
राज
were
##han
kiya
against
make
such
bat
iss
da
##ारी
religion
##wal
after
let
raj
dik
हर
##ause
##डी
mai
बन
been
world
sak
बह
इन
##ose
##ada
chan
##मान
bar
जब
##isa
jab
##iya
inc
ta
पह
hahaha
support
kut
##vel
##दर
sec
##lease
##da
##cha
comment
bas
आज
##gi
##qu
toh
किया
करन
karo
bus
gand
##पर
##ina
does
proble
problem
##gal
tal
##ile
wr
##sa
state
##ting
apni
muslims
##सा
sahi
mr
बद
jawan
please
##ite
##ign
may
pers
##ef
##वान
call
कयो
##iz
inv
##ists
बात
##िनद
या
##mo
##ोल
##टर
chahiye
##akh
##able
show
pakistani
because
son
जन
##als
##ens
use
being
##ach
big
##ami
diya
sarkar
dis
##age
##ोड
cow
मिल
##aa
dec
great
would
जान
मा
##ical
##hing
pres
din
imp
##ारा
logo
wat
##पी
तर
back
##डिया
inst
rep
hota
id
सन
##man
##we
##ving
del
काम
agar
sirf
गया
chut
bl
jaye
##ket
main
मर
che
come
same
day
stop
jai
had
sun
##ions
election
hon
ser
tar
##रम
##ult
तम
##oo
##tt
take
mein
chi
मह
हिनद
inter
##ower
फिर
well
job
tab
kej
lag
साथ
ला
real
दिया
##ffer
az
much
pub
shame
tumhar
wale
first
##get
too
ak
ker
##orm
##igh
bhak
किसी
person
sal
##wn
post
kit
##ja
giv
##ular
lead
give
##ho
##day
##pt
##ister
karte
मसल
सव
##rup
##कत
anna
dr
आत
##uc
public
अपनी
bi
nd
thing
सिर
##ough
##lf
##ory
better
##ary
##ound
ph
पार
बी
सी
##ning
cont
join
delhi
aaj
##ोट
kisi
ear
##act
##ull
##rupt
जय
##wo
##va
बना
start
kejri
##inda
gaya
sale
yeh
##eel
pur
##yo
##lam
maa
##ाना
मार
##ful
##che
never
##other
##िद
##pl
way
##ved
acc
fat
pre
shar
bc
##ks
kare
करक
neta
pad
ins
##hir
years
जाय
mis
inf
own
sc
war
##rat
##ition
play
bla
रही
जनता
घर
नता
##ect
##ba
champ
हमार
soldi
over
karne
hamare
कह
साल
look
speak
corrupt
aw
##ys
##जा
part
rss
bor
rhe
जवान
नि
political
said
##िला
dem
commun
##ody
power
sy
भर
##ces
##oss
bharat
mon
बि
those
करत
htt
कार
##int
दिन
express
je
black
http
लग
##cy
यह
रप
##बर
thi
high
हआ
##ating
sath
keep
##und
without
सना
poor
opp
अन
##ght
##ft
सिरफ
wom
जिस
मी
##ways
appe
##गरस
band
##uk
##डा
##ents
underst
feel
##कष
##ute
##thing
##less
##ors
##ady
##ution
happen
best
dal
des
gaye
##oc
##तरी
hm
mer
sm
chal
सो
invest
##bi
##own
ghar
बार
islam
##मा
##iness
##ities
action
jis
##िख
##ाइ
##mi
kaam
khud
hua
बच
thr
##ates
still
peh
##ations
far
ninda
vote
##con
doing
kyu
##iew
pah
tm
##तन
##ोर
respect
kejriwal
ref
police
mak
vide
कहा
politics
बस
##ene
teri
here
##टा
##जी
bef
kaha
##oge
most
tere
tra
##cial
understand
rha
अगर
##cash
sub
tur
talk
shi
चल
chod
दिल
try
bhe
free
##vi
khan
terrorist
nik
##em
reg
going
होगा
life
minister
fatwa
vo
रो
rahi
दी
##oud
dikha
long
##ves
##पा
apna
दिख
सनिक
name
pay
##िम
##mm
must
##ank
करो
लोगो
dhar
बर
लगा
##ip
##धान
ind
beli
market
dont
killed
et
##gl
##jhe
business
before
##gical
##कि
bab
cl
ask
janta
singh
called
champcash
मीडिया
लिख
##cess
god
होता
जाए
##चार
abhi
jaise
होन
cm
gad
जर
##ians
करना
strike
##if
into
##chod
china
चाहिए
soldiers
pat
ru
##cho
sign
##दश
chor
def
national
surgical
hel
prop
##war
##conom
tv
##वी
पहल
appeal
bur
econom
fin
gay
pata
बाद
face
gen
लक
##ian
##ाष
##ought
##aks
##llow
##ict
##old
hindus
religious
det
won
##eve
##iye
beh
ben
got
बठ
##ama
कागरस
सकत
wrong
पारटी
fil
mut
दर
मन
##eric
cho
view
##uss
##ather
nothing
always
karna
change
dh
es
gya
नाम
bhag
jay
yes
बोल
##ace
##ple
bak
could
done
##ident
som
##tv
##ush
atta
days
down
really
##ानी
nai
bhakt
sb
sin
ut
तब
😂😂😂
##ible
##िव
##ope
made
women
लकिन
cour
pla
sad
थी
##bar
##imes
level
expect
bahut
##nal
##kin
##its
indians
differ
मसलमान
हा
##िट
video
cur
hat
sena
जस
##ock
int
##ick
wait
tax
secular
hard
sala
##ाप
##ps
##nel
love
cent
अप
दल
abe
##self
##वाद
बहत
ndtv
demon
dig
dun
kum
lad
रख
लड
##rr
##udi
##वाल
dist
हए
##mber
##cept
parti
किस
आपको
watch
cash
nam
गय
doesn
gal
sik
##fi
head
##ards
paid
tell
attack
##ital
##ogi
human
both
चना
बता
##चछ
##ord
##rect
fail
sonu
gir
mc
##ms
rec
true
mull
dur
##aan
##ines
maj
buy
lol
##kha
##रत
##ोन
##शन
##ense
dena
pass
law
##ned
भारती
cle
fake
दस
##el
##xt
hoti
channel
ed
पड
bana
etc
help
somet
mah
वहा
##तनी
live
kro
दिलली
dar
अध
##ru
year
guys
border
eat
##uj
baj
cons
kumar
home
होत
bs
कस
##जपी
kah
lekin
hand
lot
walo
##रो
##bo
##lete
maar
समझ
present
pehle
car
num
mov
##ries
issu
gandhi
ram
san
आद
lea
##ween
non
गए
##सत
##जर
##ited
beef
peace
plz
between
air
hy
kat
mind
wala
##les
##uth
##ices
hindust
happy
kabhi
month
ri
पा
##rol
##लो
##vers
americ
opin
आतक
बीजपी
bill
fami
rakh
salo
डाल
पास
##unch
##हीद
##velop
install
aisa
bud
ce
yogi
##ised
##ारो
samaj
court
family
##ren
##andi
chup
next
issue
parties
el
old
sit
vi
जल
##ork
##iti
develop
fool
follow
open
बदल
चनाव
भारतीय
bra
sim
##ily
##ted
##मन
anti
stock
given
jour
last
ऐस
कल
पी
##her
##dar
##gar
##ug
##per
##ision
today
move
modiji
sat
##ced
reas
whatsa
men
prod
stup
working
opinion
care
mas
कब
दन
शहीद
itna
##ump
hote
believe
phir
कश
मौ
##ny
liya
khat
compan
pun
side
सत
prom
##ाली
resp
become
धरम
##hta
##कस
dep
aise
blo
fight
val
##nt
##ority
inch
stand
##ational
common
complete
corruption
hal
idi
ide
jit
va
गा
मद
शर
सि
हिद
##za
##ality
dear
mob
trans
tumhari
stupid
aj
jh
आग
baar
samj
sk
win
मत
##hte
##कल
##reed
chu
requ
baap
सकता
disc
whatsapp
dog
lakh
mal
वह
##med
##wan
soch
mare
hope
mor
mur
two
quest
idiot
bike
ve
सभी
##bc
##जरी
##ready
chutiya
since
journal
ret
आम
निक
मान
##res
inn
##ade
##olog
##ention
##वादी
kutte
through
lou
less
कभी
हई
##ugh
##तना
##hab
saal
baad
already
woh
तरह
place
bata
ill
kon
नोट
भाई
##be
laga
politicians
sakta
report
something
jata
kind
ty
अल
मही
##yan
##par
##pal
##सट
musal
offic
president
making
proper
dus
##तम
##वर
##outh
killing
refer
creat
times
अर
कौ
isi
करता
##ahe
jao
##ments
fact
निदा
mere
nig
नय
मल
##िग
##ond
karta
naam
lok
few
अभी
कजरी
गर
##भा
##vid
##iss
oppos
ach
case
fut
full
##way
char
##ahan
loc
rajn
kal
run
बल
यो
##je
legal
##पनी
others
jayega
louds
mul
##sh
##यक
##मतरी
##❌❌
proud
sach
sakte
kerala
fi
tri
गई
##of
जाता
jawab
comments
educ
reason
kan
pi
sor
अचछ
बा
##yada
##cc
##ीन
haz
anything
countries
leaders
जवानो
den
rul
पछ
##form
##had
##hak
allow
समय
while
everyone
gener
number
loudspe
treat
##jo
##pre
##isi
chale
read
##stem
tera
prof
end
getting
serv
galat
hindustan
deta
hue
put
पसा
suar
##key
didn
सोच
future
loudspeak
cn
cap
ob
वर
##was
##hil
##ility
jag
पाकिसतानी
अपना
bt
bot
jar
list
##log
##pr
guj
राजनी
miss
system
during
bal
ok
pu
rak
मज
##ts
##हार
saying
##ाइल
demonet
ge
lik
आर
राष
शरी
##ven
beta
##ctor
##riend
vot
##chi
##uct
##min
fore
loot
evm
acha
check
child
interest
kitne
बक
##led
another
##dies
करोड
art
plan
##मीर
things
##wood
सनिको
mobile
due
mile
ppl
कप
पल
##gest
##lines
##नो
##शा
##मर
##ative
##isation
tot
abp
परा
suffer
allah
rahul
someone
spons
serious
लाख
dete
mutil
aad
jal
pop
##red
##line
##ku
##ual
##hip
deb
yaha
everything
bring
madar
import
giving
leader
कजरीवाल
sorry
dim
friend
till
छोड
##oor
##ौर
inte
note
krne
launch
आपक
agree
yahi
economy
america
sw
send
##uck
krte
सबस
नताओ
land
जड
##ead
prote
##tain
lost
fun
red
tk
उठ
जवा
विक
सच
##ram
##ega
##pa
##मत
pls
grow
instead
hona
tarah
question
nigam
denge
hate
mist
vir
भाज
##gn
##ger
##van
thought
chr
unke
result
lagta
मसलिम
pahle
innoc
aat
hold
jb
pet
बढ
सही
##yi
##ral
##ek
##िश
##िज
chall
karke
states
social
maro
cann
ext
muh
ghus
decision
target
intern
बिना
बचच
trying
indust
जररत
ir
साम
##ai
##ech
##यान
##था
##oli
chh
saale
agr
taken
वोट
tumhare
रपय
movie
महीन
bom
find
rap
sl
##do
##ner
##arch
kia
##यादा
hell
pract
share
jaan
left
used
##िरो
agent
poll
kuchh
dekho
##ology
eff
hist
wal
##ness
step
bach
sure
att
bola
kitna
रोज
भकत
यही
##mb
##alth
andro
##ament
mean
परधान
##ulation
org
sain
living
amb
hogi
road
daily
jawano
azaan
nikal
sikh
कौन
bro
nice
पढ
##हर
##akar
conf
mara
words
विश
elect
उनह
dikh
aaye
equ
gi
hone
nor
says
##ying
##ial
##यार
##ually
const
point
temp
कयोकि
rule
cnbc
cannot
bn
dam
fl
gye
wi
एव
जिन
##az
##ss
##ib
##वल
form
होती
order
ass
##ाहब
enough
##िवार
girl
mcd
अधिक
else
musalman
christ
mother
pig
pap
फर
मझ
##cer
##fty
##गल
##दार
##धी
##ins
sell
store
proof
##wadi
trump
kyo
add
terrorism
activ
pura
jeet
difference
भाजपा
android
kb
mata
दव
पता
##ita
##ics
kaise
unko
polic
मोब
##😂😂😂😂
strong
contin
mera
dharm
gaddar
innocent
imm
pas
भा
bel
##ude
##वास
term
terrorists
income
elections
cre
khar
line
oh
ऐसा
चप
मिला
सार
हज
##💊💊
ans
##itiz
कितन
##orts
mujhe
sonia
earn
talking
digital
dil
fund
खद
##ged
##body
inko
##ouse
saath
जात
achi
bhos
matter
statement
##most
discuss
राषटर
aul
ca
emp
kas
जयादा
राम
##यर
##ject
##सतान
reh
jio
उनक
जायगा
journalists
sainik
जग
टी
##yon
haha
accept
nifty
माग
duniya
clear
##book
आदमी
company
दत
मि
##rs
tho
top
##urb
sud
##heed
account
gayi
facebook
sponsor
challenge
bre
body
cam
du
dum
dene
er
net
rest
set
आई
खबर
दग
##zz
##hai
anuj
chun
seen
##ider
banks
khabar
azan
turkey
leave
respons
जवाब
bomb
cut
freed
im
lg
pal
pta
rhi
सट
##bal
##शी
##ats
##hila
##lly
##icket
##ety
होगी
suc
##लाम
shaheed
taking
##lick
hazare
aam
mot
vis
आख
खिला
गल
बज
##hin
##ng
##jay
inde
##ased
##ately
uska
whole
##ortun
##liye
tujhe
film
history
bir
cla
gar
jin
ku
kay
mum
wah
गो
दगा
धन
फोन
हाल
##ww
##तया
##anki
##adesh
means
prime
परी
jaa
uske
paisa
हमारी
कमा
speech
हाथ
किसान
सतता
नयज
मोबाइल
house
jyada
mam
nar
randi
tam
आस
खतम
पि
भग
लिया
##oot
##cing
##लब
##एगा
##ange
kadi
anyone
adv
drama
phone
दिखा
कशमीर
freedom
click
gun
hath
scho
tata
wish
आय
कत
##tle
pagal
shah
kyun
सवाल
control
aye
bare
citiz
each
hit
sil
sare
कडी
पस
लकर
##com
##बाद
##ores
isis
##reen
##char
##used
forces
dek
##ants
coll
community
school
ah
lat
rh
पो
लिय
##here
##af
##av
##action
##oon
##tu
##नत
##ze
chara
self
stud
super
gai
thanks
harami
guy
वालो
grou
पहच
जाएगा
development
सिह
cop
ign
pos
sen
पक
वी
##wards
##बा
##hit
##ream
##let
hey
itni
maul
comes
soon
usko
truth
crore
exper
investment
secularism
khatam
service
occ
puch
path
wali
अस
##ges
##nu
##fic
having
anim
chala
sector
price
##abad
##lag
##योग
thank
perform
blame
##कषा
deser
lokpal
opposition
important
aff
gali
jate
ओर
कष
खा
बड
##दो
##जन
##uru
karenge
काट
direct
reser
bodies
needs
wants
incre
cows
##ोटाल
artic
bik
jum
kre
mla
nat
si
घोटाल
चक
फिल
##si
##cul
##era
##esa
##omin
member
stay
परिवार
##ither
lage
वाली
bole
विदश
कारय
paida
madarchod
protect
wife
pork
sens
गिर
घट
जम
नी
बडी
##jid
##br
beg
kaun
chang
mei
nehi
##hel
lear
soci
आपकी
enter
yaar
team
waha
वाला
buil
happening
bhej
baba
class
different
product
idea
request
विकास
परधानमतरी
claim
jud
kur
lal
loud
mill
rather
दना
विरो
##gy
##फी
kahi
rev
death
notes
##rib
samne
yaad
cred
train
behind
गयी
issued
intell
auk
dou
father
hour
jee
मतरी
यहा
शरम
##wer
##जिए
kap
##ired
करवा
pray
abs
coming
cond
rail
mant
cant
around
##ounds
noise
जाओ
इसस
justice
##ubali
badla
sahid
started
inform
##fied
dest
glo
lar
www
चन
यद
##hh
##sp
##yal
##कति
##बन
##तार
##ising
inki
##edi
##ures
chin
once
##imin
demo
##oda
marri
sabse
kashmiri
correct
central
disturb
majority
issues
card
eas
fal
lit
pure
😂😂
##uation
##jab
##तो
##🇮🇳
ann
keh
mandi
bangl
aapko
mila
kutta
reality
population
aar
might
sr
sle
गद
गरी
नक
बो
सप
हल
##fa
##ward
##बी
forget
itne
##ils
save
arab
dono
raho
sabhi
##ivil
knows
##ield
food
actually
चाहत
write
##ization
water
accord
signed
jarur
success
article
found
jam
jun
past
poss
sense
vish
vict
##hu
##ging
##िता
##uf
##रच
##itish
##aki
nahid
chahe
##लाक
exam
hui
gaand
politician
aage
decl
bihar
karega
consider
खिलाफ
democ
col
mn
mass
rbi
कय
कही
##adi
##mat
##तक
##वस
##zi
##hid
##ayi
##ural
##idd
diye
##िका
इसल
crores
apps
haram
singer
away
happened
benef
samajh
masjid
pupp
cas
hn
ima
lang
खान
चौ
##मो
##esha
hay
isliye
##ading
reme
force
dekha
##ode
##anda
marne
engl
##ffic
समाज
feku
hero
##weet
puri
रपए
##िटल
निकल
जगह
cir
dri
fam
khila
pan
ud
yet
तरी
बट
माम
वही
##earch
##ादी
##बल
##फा
##hic
goog
##vert
using
##लाह
word
logon
research
hamara
##हाद
##endra
minist
choice
utha
bajaj
friends
दवारा
##llywood
copy
sleep
according
lena
tb
आन
##kr
##work
##oti
heart
story
##igation
काल
least
hij
uski
amount
critic
bho
bada
कमपनी
spend
commit
rights
incl
brain
simple
punjab
mistake
industry
policy
create
maulana
aukat
remember
cry
goli
mp
ment
sla
yar
इतना
उप
खल
चका
रि
लाल
##ied
##गार
##बदी
##धा
##ared
towards
करग
able
होना
thats
atank
cross
##kaar
bhut
seems
उसक
secur
shows
insan
small
islamic
दसर
stocks
suffering
continue
society
langu
google
civil
gl
met
mess
raks
कट
तीन
याद
सस
सथ
##yar
##mer
##इन
##reci
nahin
near
परत
##sel
uni
crimin
hamari
huge
teach
waq
honge
communal
baki
listen
constit
erd
aata
cust
hor
ras
south
went
अख
झठ
निर
##rent
##fc
##vious
##वार
##😀😀
online
rema
karwa
health
##ogan
unki
worst
krna
जीत
speed
दोनो
writ
तमह
prepar
bengal
budget
योगी
aulad
bna
hr
कई
कान
गाय
छट
बला
भाष
##hra
##mit
##धन
##😡😡
##ony
##ont
kahan
priv
parli
##ished
##ाकर
##cially
cost
kutto
busy
dharam
लडक
cele
situation
viol
type
demonetization
effect
emplo
erdogan
parliament
fas
डर
बिल
##ey
##ever
##vation
##arat
##indi
##ero
bew
deal
prog
press
neg
abt
##ula
badi
##lain
enjo
समस
tech
wonder
intr
##ughter
education
cult
nons
naks
por
अदर
सह
##dp
##vide
took
isko
##ether
chat
meat
##unga
परति
baith
unhe
manner
bull
उनकी
bark
reply
personal
##vail
##bai
लगता
bloody
##ission
came
fur
gold
jnu
ll
low
mouth
sid
जहा
पतनी
फस
##full
##षटा
##vo
inke
##hay
dost
##head
congrat
muk
कमार
sharma
makes
current
value
allowed
loudspeakers
राजनीति
practices
answer
mumbai
पिछ
global
mandir
english
समसया
dub
dream
hun
sahe
waj
अम
कवल
नया
वा
##over
##ric
##jh
##wise
isra
kids
##ically
whether
dead
prot
shut
##ands
concer
bhaj
mang
जाती
##osed
fav
bharti
##ize
sharm
finan
curren
नोटबदी
विरोध
गरीब
aut
han
km
lay
luck
tay
जि
पट
##ove
##ii
##कान
##vind
##धार
##ham
reach
meet
saf
bhad
marte
appreci
bolne
bolte
##rohi
book
bollywood
otherwise
bahar
bahubali
milit
quali
##adav
publicity
rupe
waiting
created
mutilated
international
सामन
christian
##coming
security
language
aaya
fan
jati
lim
tala
vik
अज
आया
तलाक
##ege
##mar
##bh
##val
##वश
##ची
##ano
thy
deli
short
jail
mach
कितनी
khane
exe
##ाति
shak
humare
दोसत
thinking
matl
single
cheap
आतकी
soldier
dalit
shiv
mulle
rajnath
fire
loudspeaker
##ledge
पलिस
bil
cp
est
jana
lady
west
खश
बडा
भज
भया
शिक
सौ
##gr
##ler
##kat
##uce
##aring
##ots
##lement
##ury
##uran
##ira
chud
chance
remo
jawa
safe
unable
lekar
bhas
usa
##ayega
gave
spre
implement
views
headlines
clean
months
आतकवादी
दनिया
children
फिलम
announ
nonsense
auth
gan
gone
hv
late
rate
उत
कॉ
नर
बाक
रात
लट
##shi
##oz
##ders
##row
##port
##डर
##णी
##orities
##aka
##uri
nax
mode
goes
##the
marna
amit
events
bolo
कमाय
kyon
##jiye
दखो
whereas
invol
tabhi
partic
woman
आतकवाद
billion
jagah
group
learn
univers
custom
currency
cer
cou
fb
gari
hol
ऐसी
जित
फाय
बम
माल
ली
शाम
##hone
##ाब
##ten
##ोक
##ोज
##डियो
##णा
##hamm
karti
prin
##racy
banned
arr
upcoming
page
##ाहर
trust
##oki
##ives
gau
bade
wahi
guide
कहत
looks
award
investigation
failed
pich
bhosdi
visit
पोसट
possible
इसलिए
##selves
prepared
israel
age
aisi
alag
hus
jur
jho
mt
mud
ps
sent
चला
ताक
तयार
धयान
नम
##ao
##fer
##pend
thik
kiye
dega
shall
above
javan
tumhe
yourself
upar
pain
ent
shahid
badal
##others
roj
coz
opt
office
religions
based
useless
bhakto
hatred
morning
अचछा
totally
pollution
##ibility
doub
remain
ata
cy
cat
gdp
irr
jane
mit
mention
ul
vill
मस
वय
सपर
##yad
##no
##ker
##kul
##तिक
##डक
##👍👍
##eng
##has
ant
iska
##ota
naa
star
परश
परम
##atever
paise
हमला
enf
huye
##😂😂😂
chutiye
sharam
warna
playing
speaking
बिहार
bura
bhagwan
watching
rich
retur
aadmi
responsible
animals
victim
fra
gyi
hur
kun
mi
tat
yadav
नकस
पतर
बाहब
भल
मख
##ac
##iyo
##तकार
##डो
##पकष
insa
##utes
##olute
dev
stat
##नाथ
yeah
supre
arvind
रहगा
die
आपस
brah
बनद
बनान
second
tumhara
बरबाद
movies
companies
samjh
अललाह
milega
total
growth
attention
discussed
citizens
includ
constitution
protest
बाहबली
bina
data
eating
either
nt
sus
zind
खात
मारा
##yed
##ration
##cent
##बत
##zar
##ori
##diya
hein
करगा
##inding
##ession
hosp
किय
unt
loss
chahte
khali
ali
##वाही
इसलाम
हमारा
enti
bolta
समर
उनका
इनक
basis
biggest
महिला
सवि
opportun
regard
लिखो
जरर
दलित
hyp
depos
murder
idiots
general
##pret
rape
paper
deserve
build
hours
absolute
नकसल
celebr
favour
matlab
bilkul
fall
gut
gang
ny
pati
sang
ten
var
इडिया
उल
खाली
मात
##cl
##fti
##वक
##que
##inter
bech
whatever
reli
karan
##idence
saudi
bap
within
joke
usse
##वाई
process
cricket
appro
lete
sakti
problems
बदला
##mohan
bless
salute
merit
economic
mahar
dogs
हजारो
dir
dra
dang
khel
quran
rat
tw
उम
दा
वस
वाह
सवा
##ran
##gle
##pan
##band
##बार
##एग
##मद
##ency
##oul
##ings
deep
unka
atle
रहत
##orted
among
##kari
bhul
white
knowledge
british
special
corp
grounds
hahahaha
showing
तरफ
जायगी
baby
humanity
satta
fighting
पछगा
results
ambani
विशवास
information
##🇮🇳🇮🇳
entire
gul
game
mom
midd
sake
song
sound
sick
खाना
घस
पजा
वाप
##yn
##date
##ggest
##where
##bad
##एस
iske
##uty
##uti
seena
young
काला
##odh
sap
sahab
bacha
##ाला
suggest
##ther
cham
tumlog
logic
poo
event
spo
sports
rahega
singing
oper
पहली
##दरो
honest
netao
infl
कारण
meri
behen
budd
transaction
dusre
educated
gujarat
foreign
independ
ignore
credit
railway
destro
guidelines
atleast
bit
dala
gus
ic
nh
nas
yahan
गह
टर
नौ
फक
फरी
रा
सफ
हार
##ire
##वन
##सार
##🎵🎵
##⚽⚽
beha
naf
##ney
maz
saalo
week
manage
front
krta
except
दशमन
मोह
##lier
##कारी
guess
##aniz
cover
solution
quality
impro
misinter
hands
presented
leaf
मौत
##❌❌❌❌
demonetisation
कपया
##culated
bangladesh
khilaf
waqt
बलातकार
qualified
supreme
absolutely
middle
aane
bes
balo
binding
cast
ded
tweet
कन
खन
बरा
सद
##ience
##tm
##ton
##ीज
##वत
##टरी
##इय
##itive
##ley
rele
kara
करा
raaj
united
apology
##hti
##aree
##वाज
waste
aapne
samay
आपका
enc
crime
mufti
waise
compet
solve
चाहिय
राजय
lets
माता
azam
सीट
##ाइम
##ोरट
defin
distorted
##ruct
ille
seriously
dimag
##mbers
silent
reservation
mantri
circulated
talaq
बाकी
misinterpret
aati
cause
domin
norm
os
russ
wow
zar
अफ
चार
नजर
पत
फौ
वज
साहब
हक
हिस
##hn
##yat
##ाउ
##uka
##ught
##ws
##wad
##bhak
##ोद
##वो
thous
##eral
##ites
isse
sex
seat
ready
jaisa
chaiye
khana
rahenge
##waz
bolna
bhen
##ages
talent
##ensions
##aaaa
भरषटा
##माण
jayenge
completely
गाधी
lakhs
chalega
north
immedi
sensational
negative
deliver
ahead
coun
em
gon
iit
link
pani
test
yah
zero
अमर
आपन
पदा
यपी
##ob
##gine
##cs
##uu
##दम
##थर
thoda
iski
##using
karw
nav
परि
magar
manmohan
apko
almost
laugh
ammi
hume
boy
aag
bahan
madam
offer
आजादी
looking
born
hmare
tmhar
indus
मदद
skte
officer
charge
mulk
rakha
foremost
temple
activate
example
democracy
बिलकल
bewak
techn
saheed
fraud
ay
avail
boss
lenge
lund
sah
tas
uth
आएगा
पपर
##aad
##oj
##ost
##come
##ped
##षय
##पप
##iso
##ison
##orter
toget
seats
members
##cks
banane
atm
रहना
chahta
khush
along
prove
provid
sabko
afreen
happens
jayegi
chief
लाइ
scam
register
brave
jitne
rajniti
dimensions
टीम
break
birth
students
performance
lalu
culture
jurist
nafrat
leaflet
gst
jha
lah
lene
yrs
दौ
##oint
##ials
##ues
##ban
##बाज
##टल
##anga
ise
isn
##ured
kid
chur
rece
nahe
key
shan
maan
leg
march
whats
chap
worry
इसी
hame
##करण
##ube
badle
hinduism
##pective
rohit
actor
##मीद
maybe
decide
drink
earth
padega
speakers
powerful
सोन
farm
turn
voice
defence
मसलमानो
हिदसतान
required
details
organiz
elected
equal
विदशी
judge
false
बोला
कानन
मखय
including
hospital
dirty
corpor
illegal
together
date
pand
rally
vs
yr
टक
टॉ
नार
मरी
माह
शास
सल
##hru
##ior
##cle
##cri
##ाट
##mor
##षण
##wi
##वि
##पति
threat
haq
haal
inj
##adu
bea
mos
काश
bache
aapke
##eep
sarkaar
साफ
admi
compare
fear
उसका
ghan
दखा
hahahahaha
gandu
जाना
repres
jobs
earlier
videos
mullo
ruling
organ
आखिर
मामल
remove
involved
husband
until
समरथ
hypoc
वजह
cal
sina
कपनी
बॉ
शाय
##ood
##iy
##cil
##pur
##खा
##कश
##wat
##सर
##😁😁
##चा
##esome
##hav
kahe
heard
itself
stage
##ided
jaha
unf
##rage
liber
chahi
इसती
amaz
सरकषा
gain
bhat
##enda
समा
gets
##ितर
shameful
bcoz
demand
asking
burn
😂😂😂😂
##rrrr
record
rakhna
बचचो
chhod
रोजगार
achieve
network
intellect
kapil
यदि
easy
atankwadi
porki
further
particular
मसज
bis
bate
ene
fast
gy
lic
lga
lada
night
tara
une
vin
wt
आता
इतन
एस
ऑफ
टाइम
मरा
हतया
##ron
##men
##पत
##पोरट
told
andar
##amb
##aming
whom
nehru
##tel
suwar
##cked
nobody
usi
जाकर
##eez
hamla
सकती
kyoki
विध
royal
strug
##agi
dawood
supporting
महगा
akhil
सवर
बनाया
अनसार
bhakts
बताया
laws
simp
chuka
malik
vehic
लाखो
उठा
petrol
अधिकार
belong
sudhar
किसानो
jumla
marriage
परतयक
भाषण
##fully
पतरकार
ache
bul
clo
fest
gur
judi
lab
nay
port
इच
उसी
दम
दता
बयान
बाहर
##ross
##लर
##दारो
##ises
##hadi
ang
isme
##lling
##lect
beat
hei
करती
shop
shuru
##pped
sawal
wel
##than
##harma
कितना
alle
lives
banaya
candi
##htra
khus
whose
music
fair
##ctions
themselves
became
himmat
adhi
brand
brother
bahot
banking
##atiya
dekhte
दखी
coward
मिलगा
kitni
सीमा
मारन
awesome
asked
ladki
achha
शरीर
aatank
उनहोन
गलत
occas
employe
program
doubt
return
hypocr
शायद
bta
eye
gandi
jat
kang
maya
que
vas
yhi
डी
पङ
पति
लन
वकत
सख
सजा
##dra
##tar
##तव
##दध
##टक
##टस
##जय
inka
initi
##iter
##ently
repe
##ika
shud
area
होकर
saala
bane
chak
divid
दिए
इसका
proved
faith
accha
कमर
percent
needed
उसकी
सरकारी
match
talak
bhakti
सीना
places
channels
consum
airtel
jitna
officials
piche
rules
profit
gujrat
debate
extre
temples
kharab
हजार
tamil
bhool
private
violence
vikas
##hammad
enfield
sanghi
akhilesh
aya
jut
jind
lam
nu
nak
ran
sri
sari
ti
vid
wap
इतनी
एड
चकी
चोर
ठी
पानी
सग
##ex
##eved
##light
##cus
##कात
though
##ini
##isha
##uring
##ades
bekar
##etic
goa
##tee
conver
##hele
ash
manag
marty
chah
worth
peoples
##वाह
project
दशो
hamesha
congres
hinduo
afgh
himself
##maan
madr
minority
##राइ
acting
ghr
surpr
हराम
##itely
impact
suna
phot
पारट
finally
mulla
मौल
blood
मतलब
running
fix
triple
obvious
jaldi
increase
intellig
financial
garib
option
reliance
normal
russia
gonna
represent
इसतीफा
महगाई
पङगी
aja
cra
hang
lut
nit
ot
pill
rok
sbi
दकान
बाज
शाह
##yle
##go
##like
##गान
##😃😃
##isy
##eda
isti
##ayan
bey
##ets
chalo
react
kehte
##ctors
max
##ulations
lie
manuf
atanki
khate
exact
##osh
##िसट
provide
दशदरो
justif
##ived
known
becom
kashmiris
##agar
दखन
राजनाथ
जानकारी
ident
blind
chill
##uced
dalal
smart
turk
namo
cell
promot
jhut
samjha
batao
local
multi
treaty
likh
debt
विशव
pigs
##💊💊💊💊
position
senik
affect
कारयवाही
famous
criminal
दोसतो
नरदर
उममीद
वापस
available
simply
festiv
aak
aab
ese
garee
jese
jahan
kor
om
oil
vers
अभ
खरी
खोल
जरा
दती
लना
सघ
##dy
##den
##gu
##iod
##nay
##यता
##press
##रट
##bit
##ोरी
##धर
##पाल
##चारी
##qat
##chan
##ably
abuse
परमाण
##tact
maha
pee
weak
pariv
asli
lia
dial
died
जाति
musl
##ashed
इसान
paas
shayad
tro
across
मोदीजी
tuk
commission
harm
brought
सबको
fellow
dekhna
daal
करनल
statements
मिलन
salman
contro
early
earning
insp
अनय
throw
markets
expected
intol
##ापत
vijay
promised
creating
profession
राजनीतिक
जडिय
roads
kasmir
expert
occup
chinese
benefits
ministry
crying
model
jhoot
guts
farmers
ठीक
manufact
turkish
av
base
bought
city
dush
dude
gup
guru
hence
ips
jake
jada
od
pate
sind
wip
आकर
उद
खड
तभी
धो
फा
रक
हथ
##hr
##rated
##cu
##tak
##ters
##jee
##षट
##ीर
##तज
##ोस
##एम
##😁😂
haj
##lled
andh
kaat
##ird
chand
yout
hear
nap
keya
pra
pradesh
##ogue
abd
abb
परचार
##pper
withdra
contact
rav
mana
manip
apr
रहो
diffic
##osa
rahoge
इसकी
prob
##uel
दशभ
medal
resol
सरज
boh
period
##ायक
उसन
उसको
nations
##fect
उनको
bato
talks
pakistaniyo
जानत
तमहार
padta
inside
दीजिए
लिखा
propag
deti
failure
बलकि
planning
walon
मिडिया
lgta
गोली
धनय
भगवान
कषतर
little
vishwas
caste
enjoy
bhajan
university
status
पतथर
immediately
unfortun
समाधान
close
bht
dalo
ey
eur
fed
mir
sci
shir
tun
ticket
yad
अग
खतर
दगी
फल
बाप
भड
मतर
यार
##du
##gin
##nat
##यम
##bot
##हन
##itha
##dil
##asi
youth
##imum
forg
forced
prices
परस
परदश
mag
maine
conde
रहता
exce
जाग
##osing
engine
##oken
bold
bhok
fek
minorities
strik
##ियत
milta
हिनदसतान
gives
bich
highly
जिसम
जररी
galti
पडित
hindustani
आतकियो
movement
punish
half
halala
मदिर
malum
officers
achcha
gift
sainiko
narendra
bika
millions
large
jarurat
famil
auto
appreciate
limit
exec
prince
improve
intoler
youtube
condem
der
east
fit
gud
hen
izz
oly
sour
uk
औकात
छोट
पन
पयार
बवक
##dh
##drohi
##co
##लड
##uals
##♨♨
three
##esi
haar
anal
##itor
##ayenge
chudi
separ
rem
pri
shr
##stit
काफी
##unt
परव
jain
japan
maza
pakist
suk
##ried
loans
khal
khol
dia
exist
##udh
agg
upon
##aji
##कारा
applic
##ending
##ended
complain
विधान
विचार
jante
grand
ground
wanted
quite
daughter
cheating
sunny
बीच
जायग
सालो
symp
रपया
अनबन
kyuki
pathar
bakwas
levels
peaceful
minds
कबजा
मौका
मददा
वरना
likha
interested
thoughts
address
below
citizen
ahmed
ignor
positive
ministers
written
लडकियो
फसला
mukesh
jawaan
spread
ताकि
irres
##ength
नकसली
insaan
definitely
ladai
occasion
मौलाना
gupta
हथिय
duty
gri
gund
hous
hindi
jad
naya
py
rub
tre
uda
vip
zee
आइय
आवाज
ऊपर
गण
चम
जिल
जिम
टट
रास
लत
लव
शो
हड
##air
##dha
##rin
##rap
##gil
##lad
##pf
##बक
##नल
##पस
##जना
##मिक
##ern
hav
inhe
##hamed
##itions
##ashtra
kaa
ones
ste
sher
moh
##ila
##illi
jaate
होग
saab
wealth
औरतो
conv
param
unlim
##raj
arg
frust
रहग
tumne
कमाना
सकल
##दाय
सास
seeing
jawans
विपकष
सबह
सबका
explain
femin
roz
role
##राब
राजा
इनको
persons
मारो
##baad
corrupted
communist
communists
keeping
जिसस
feeling
तबाह
course
chuke
lesson
facts
##यकति
generation
slap
fundament
imf
बजट
कतत
products
गददारो
slaughter
message
raksha
पिछल
military
baloch
फौज
organization
##express
खरीद
olymp
unlimited
ake
avi
esa
fay
fate
gra
jy
nhe
naye
sum
site
sche
tali
गौ
गजर
डिटल
तय
शब
हद
🇮🇳
##side
##ling
##jali
##षी
##wab
##सभा
##जिय
##erous
##onse
##ences
haa
toler
##dia
##rection
##urt
kai
##yab
##याल
nazar
##abl
style
##ताब
##iled
mao
pel
paki
socho
lies
##pecially
arun
indianexpress
div
##िकल
krke
alone
##ressive
resign
gae
gaali
bahen
foot
cool
ghat
janwar
mili
राजन
बहन
barbad
shown
##ension
instit
stopped
honi
##ooo
shares
infr
scri
syri
cleric
especially
centre
दलाल
रखा
buying
bsp
पाच
foolish
पीछ
शहीदो
skta
योजना
internet
assam
भाग
campa
pathetic
changing
चनल
यदध
benefit
##हादत
criminals
तमहारी
rupee
rupees
##वशयक
naxal
certain
शामिल
brahmin
##टरीय
अमरिका
taraf
candidate
afghan
istifa
families
बवकफ
awa
bun
five
field
king
lak
pick
sans
wid
wake
yu
आए
आती
कड
खरच
चाय
जसी
तझ
बग
बध
बटा
मिस
माद
शयर
शाति
शहादत
##san
##yy
##yam
##eed
##cies
##ky
##uff
##करी
##wala
##नद
##ततर
##शल
##जज
##💐💐
thok
##ona
toile
##ication
##iry
sever
forward
shoot
कीजिए
##नाम
saare
saaf
bac
convers
unlike
apke
apki
khul
deshdrohi
इसक
papp
हमशा
sham
evidence
crpf
however
takes
waale
congressi
brothers
strength
khaya
actors
supporter
surv
rajan
supported
जानवर
aks
##hood
phle
played
speaker
jisne
रोक
##cessary
जाएगी
बताओ
major
carry
american
produc
response
valu
questions
निकाल
illiter
slow
aayega
musalmano
activities
charact
वीर
porkistan
घटना
million
##वसथा
mentality
rakshak
अखिल
छटकारा
pressure
wajah
अजान
machine
catch
महिलाओ
regarding
independent
मखयमतरी
exactly
patel
eyes
izzat
##नलोड
डिटलस
campaign
aas
audi
dho
drohi
fine
gha
hme
il
jara
kad
ms
mol
mun
none
pic
pant
pharma
rates
ull
utt
vol
wise
yha
आरो
ईस
एन
कदम
चीन
जारी
दौर
नई
पाय
##ship
##rate
##ient
##mu
##mad
##ping
##bers
##bish
##नट
##ोडी
##णाम
##चित
##ined
##ery
##ering
haan
##dic
##eti
##istration
kargil
kee
##ability
कोगरस
shri
yehi
saw
औरत
##ande
conne
##hehe
##ested
pakistanis
marta
lose
uss
chad
chai
khun
shouldn
agenda
हमल
trou
gaur
कमी
space
sara
advert
brut
strict
##ियन
ghot
चाहता
जबकि
jabab
##ensive
bigger
disg
blaming
आतम
biased
pade
insult
oppose
smj
understanding
dikhao
लगाए
जाएग
finance
dunga
doesnt
attacks
lots
riots
career
khatm
block
winning
अलग
##भाव
btw
voted
funds
iran
dumb
हालात
married
jung
declared
यादव
introd
naksali
barking
announced
उततर
holy
फायदा
spoke
management
टॉफी
समरथन
enemy
ऑफिस
welcome
dushman
सरजिकल
clerics
ai
aate
avo
dard
dhan
disa
gum
hd
ipl
jute
jesa
lu
lines
pict
rip
rural
आवशयक
इतज
गौर
चढ
थोड
धर
नबर
नमन
पद
पान
पोल
मना
राह
सधार
😀😁😂
##lb
##land
##kt
##tay
##pat
##रिया
##var
##vir
##डन
##सथ
##xit
##आई
##🙏🙏
##anna
##itation
ish
##ched
##uses
##vey
reaction
karen
stre
##idents
mod
areas
abi
##ops
saam
baare
pari
parents
raat
raise
bhaga
mard
los
ati
usne
humans
##aliz
bhaiyo
muje
everyday
everybody
afrin
साब
admit
focus
active
ghum
dekhne
buff
बहमत
basic
tarha
लाश
previous
powered
chalta
बचा
respected
payment
belie
##किग
patri
dhyan
hats
cashless
sikha
ideology
treatment
profile
puja
rakhi
votes
agreement
practice
भकतो
sikhs
dikhane
chunav
responsibility
groups
वीडियो
prayer
faltu
चौक
congratulations
mentioned
परशान
opportunity
मातरम
maharashtra
twit
टरन
lahore
identity
dialogue
difficult
sympath
script
pappu
अखिलश
bure
das
dad
dab
dnt
dying
fm
fou
jet
jwan
kht
kish
lan
mand
mothers
olad
pse
ways
अव
अकल
अतया
आदश
गोल
जमी
दकर
पश
बटी
मक
मास
मकत
वशी
शिव
हिम
##yment
##nd
##nam
##kum
##mal
##बानी
##मट
##आत
##atives
##oni
##enced
tod
tomor
##hah
##iting
##itors
##rew
##ional
bete
kiu
wht
kaj
kosh
chl
search
karoge
kept
करान
deg
prab
##ida
goons
bazi
doctor
##hari
##ester
loan
chaye
khoon
hindut
aapki
agn
##mpt
##ातर
sabha
facil
shadi
##िनदा
##ends
##astic
tel
perfect
room
उसम
minutes
thinks
ghatiya
supporters
commenting
##achar
repla
हिनदओ
##ratic
कहना
jews
desp
shiva
चलगा
gadhe
signup
😂😂😂😂😂
digvi
numbers
आदि
kindly
kanha
leadership
ruled
jaroor
mission
छोडो
protection
funny
virodh
steps
christians
policies
मागन
kayar
kyunki
experience
increased
colour
puppy
puppies
image
listening
concern
जिहाद
establ
शिकष
spreading
announce
kunder
सविधान
chamcha
dalaal
beshar
dominar
परिणाम
technology
ghanta
amazing
employees
kangana
converted
gareeb
फासी
विधानसभा
हथियार
feminism
syria
वशीकरण
tomorrow
ala
bd
bri
dhi
dress
fig
ly
light
lower
pen
rig
rast
ukha
upper
zara
अश
खराब
गस
गगा
चारा
जत
डाउ
तस
धार
महा
रव
रिक
वद
वया
वयकति
##king
##uly
##mission
##po
##भर
##wali
##wari
##wara
##bhai
##हान
##ोश
##शत
##फत
##ठी
third
##ones
tou
ankh
##itisation
##uted
chen
select
nawaz
meh
station
shout
goon
##ili
jaati
##ceed
maut
sacri
##ालय
##thy
##hega
lega
soft
marx
aren
chair
##tific
tumko
divide
##िकट
lack
amir
jihad
jihadi
sabit
facing
trp
trad
##eeee
taki
कमान
##arian
##arious
spot
##गरसी
everywhere
admin
compla
##dev
specially
विषय
विजय
सबक
killer
aao
rock
sold
buz
इनकी
incident
मिलकर
tabah
बनाकर
accused
padh
अनप
bandh
दिखाई
belief
##वीर
finish
century
abey
लडाई
पडता
rakho
developed
punished
standing
halat
murd
महीना
योग
अचछी
##hadat
capital
मजबत
voting
jald
reduce
mistry
electric
फरजी
kbhi
भाव
thodi
ahmad
rhy
student
bolega
नीद
changed
revol
cases
sleeping
mental
##india
concerned
layak
नमबर
approach
inflation
encou
competition
church
received
burnol
obviously
probably
धनयवाद
irrespective
rubbish
afghanistan
character
uttar
trouble
disapp
picture
डाउनलोड
aim
ath
auka
bin
bother
cc
dat
dare
duk
dict
era
jub
leta
lira
md
mish
oct
oka
pot
rise
rup
roti
umm
vision
yh
कदर
गाली
चर
चीज
जसा
जिनद
फला
मितर
सभ
सारा
हि
❌❌❌❌❌
##ae
##sak
##ray
##lal
##uction
##jar
##bs
##bl
##bat
##बट
##वट
##ममद
##ॉल
##anath
##ergy
##ator
##isions
##oro
inse
theek
tough
##dian
##asing
##utions
sey
##istic
rehte
naut
dey
defe
prash
neigh
neither
परापत
jaisi
jahil
##ulars
bag
hoo
door
doll
##yega
##istance
leke
banana
##लावा
krk
krish
lagi
rahte
ago
##mplo
##ातरा
एकस
##iveer
trh
huwa
bhon
##arif
##ciary
commer
सबत
madhar
उसस
governor
##मीरी
quick
calling
मरख
##oof
लाग
joining
joined
karegi
aware
##कषण
khuda
reform
bhee
bhejo
regular
patth
दरद
bhagwa
dunia
दसरी
helped
sometimes
handle
जलद
fools
following
reasons
master
transport
chuki
veg
reports
मललो
fully
charges
kanoon
balance
bringing
चपकश
achieved
मिठ
सटराइ
mamta
ayega
superb
पकिसतान
animal
natural
घोटाला
chinta
easily
jammu
considering
फसबक
अमित
सौतन
ganesh
customer
moment
thousands
भरषटाचार
emot
judiciary
intelligence
beyond
muslman
ravish
fundamental
गजरात
आवशयकता
इतजार
pseud
अतयाचार
agniveer
❌❌❌❌❌❌❌
neighb
dor
dna
fak
green
hata
ie
kn
kch
ml
mast
nir
nath
nitish
pd
pt
pie
ris
sister
sush
sounds
tan
tag
vale
wash
wahan
अद
अतर
इड
तथा
नए
पच
भस
मगर
राक
रकी
सारी
हास
##hat
##gali
##lan
##ners
##tr
##jj
##ph
##कशन
##wati
##by
##जली
##फतार
##aran
##aram
##ining
touch
##hiya
##inge
ane
##uries
##ado
##ारट
##ushan
kijiye
##ici
kaf
section
करी
करम
करनी
pras
pros
sta
##ahar
कोइ
कोरट
##iding
##ikh
sho
abh
परकार
##verty
##odhi
weap
##ateg
mari
रहन
worship
rahy
##ression
deshbhak
amma
poverty
sabut
fault
evil
trah
trading
##oko
apply
hamre
##हास
##astruct
समपर
जीवन
afra
command
foji
governance
sayad
suru
दखना
दखिय
letter
chip
keral
salary
contrib
starts
maaf
owner
speaks
निश
communities
travel
बरोज
मनमो
choot
esi
taxes
banao
sitting
कशमीरी
गाड
##भाग
denomin
आरमी
launched
swami
extra
waly
ambul
girls
राषटरपति
caught
clearly
dukh
advice
collect
college
krega
नीच
condition
successful
driving
अखबार
भाषा
bhasan
psu
zindabad
dangerous
ratan
gulam
pooja
behavi
unemplo
struggl
vehicles
सगठ
photo
april
propaganda
europe
shirish
excell
strikes
infrastruct
ullu
twitter
धारमिक
complaint
revolution
सटराइक
cards
dan
fud
fuck
flag
hop
jes
jim
kise
mid
pha
soul
tit
tcs
ven
yester
आह
ईट
उपर
कसा
गड
थर
दध
धम
निय
फट
बजा
मिन
रकषा
वतन
शादी
सध
##yenge
##ool
##ring
##kk
##wate
##wide
##view
##धि
##जल
##जो
##inal
haf
##ories
##edd
##itory
isil
##ret
##otism
behan
##icult
##iri
reven
##imate
karni
individ
kewal
##uman
degi
meas
##stan
##sters
baja
hoon
doctors
##ालत
union
unity
unif
##लाइन
tumare
dijiye
exit
alive
wasting
इसतम
aapka
sambh
upto
ens
energy
crap
appoint
acche
##ources
tea
tele
hoge
नागर
##तिहास
fees
milk
बनन
इनह
kute
##दरशन
##daar
आजम
##ques
disp
तरत
साथियो
azadi
akal
दिनो
higher
जिसक
जिसन
appease
jisse
fark
subs
चलता
chori
wont
bhagat
demonitisation
recover
शरआत
skill
moral
properly
##jeet
treated
holding
polls
points
फरक
funding
टीवी
sudden
indeed
silence
later
disturbing
massive
civilians
गरीबो
मालिक
ult
नकसलवाद
पजाब
influ
destroy
भरषटाचारी
लाइव
birthday
mosque
vinod
शरीराम
parivar
bikau
sukma
##जजत
illiterate
ईसाई
हिममत
शिकषा
murdabad
mishra
okaat
nautanki
patthar
मिठाई
मनमोहन
infrastructure
इसतमाल
ast
bari
bara
cul
gamb
jakar
khe
kud
kala
kfc
mic
mall
nind
nda
nanga
rti
sas
sard
various
wanna
zyada
आक
आड
ईमान
उमर
गम
छा
जिद
तया
दब
दाम
नहर
पटर
पडा
मला
मकति
यवा
रोड
लगी
सिख
सलाम
सडक
हस
##hy
##ahi
##rus
##rum
##rop
##cot
##cum
##cast
##tan
##jit
##षो
##रद
##गला
##हित
##vant
##दिर
##शिश
##सस
##णड
##😊😊
##anch
##ankh
tht
##ino
##onment
##encies
##eds
anc
##asha
andhe
beth
kaho
##ows
sea
rehta
##ume
prachar
##abh
कोशिश
##ides
moder
goo
##ilty
jaiso
orig
saving
baitha
suic
convert
किलो
unse
unhone
leone
hiz
liqu
तोड
##hty
रहगी
##गाव
khata
exc
yours
##athers
##ayee
anyways
pair
pok
saboot
truly
acce
huaa
bhot
लोक
समान
##anel
muhammad
knowing
कमज
कमाई
tuje
spent
##cipl
works
feed
goverment
##aniyat
coal
actual
quit
barbaad
पहला
##ized
invite
##टरो
disres
decided
presstit
interf
drop
biwi
##play
bcz
कहता
लगान
dalali
farmer
dikhaya
लगाय
दरज
choose
utar
utter
रखन
distrib
##ujli
bsf
kahte
चनावो
produce
promises
depart
standard
journalism
tried
reading
services
राजनीती
राषटरीय
popular
importance
aatanki
##िजिटल
papa
pasand
भाड
aulaad
accounts
आसथा
##लबाज
director
jumle
चककर
कारयकर
aarti
गददार
spending
privile
authorities
customers
फायर
village
वयवसथा
zindagi
drag
songs
gussa
हिसाब
thousand
corporate
organisation
madrchod
nitin
aakhir
सासद
balochistan
akshay
avoid
saamne
साबित
despite
digvijay
kanhaiya
buzdil
aukaat
krishna
sushma
yesterday
isiliye
revenue
disrespect
four
fuel
gate
hin
jr
lun
nal
pk
pin
pit
sand
swar
tir
vig
vaj
wen
wit
अत
अड
गठ
गला
जट
जॉ
जता
जमा
टकस
डॉ
डिजिटल
थोडी
नाक
निनदा
बनी
भख
भम
सिद
हटा
😀😀😀
##hha
##hhaha
##ain
##oh
##ela
##nge
##cist
##यी
##ukh
##uji
##tom
##time
##jan
##कट
##wale
##bha
##baj
##बधन
##हो
##vas
##वसट
##पथ
##जिस
##मारी
##ौल
##ॉर
thak
thie
##ination
##alous
haath
haven
##lear
kafi
koh
cheez
youtu
kary
hea
naz
prad
##abla
necessary
##ikar
shat
shock
##ster
ability
##under
##ilar
jaata
##neeti
##tage
comed
baha
bahad
baaki
##semb
concept
assemb
unless
jok
##rial
manoj
apny
bangal
atif
##ties
tumari
worse
dipl
दिय
इसको
prov
anyway
ager
upa
हमन
trade
##alize
medi
medals
bhaiya
bhala
लोकस
badha
सममान
relations
सकय
harkat
compared
territory
outside
root
minute
kisne
khade
##ादो
bhart
acts
herself
survey
दखत
raja
इनस
barbar
beings
मिलगी
मरन
realise
shameless
##uclear
phr
बीवी
pret
players
##बरता
सोशल
nikla
##चारज
choro
##aksh
बोलत
couldn
अपमान
दलाली
names
telling
recog
recently
passed
similar
सतय
respond
journalist
मानत
अलगाव
musalmaan
dusro
मलय
missile
okat
industrial
confir
former
pigeral
camp
गलती
भगत
gunda
सवालो
schools
senior
affair
जमम
changes
built
शरमा
kapoor
declare
committee
रिपोरट
crossed
sides
dosto
congrats
autom
tayyab
reached
cpm
mudda
ताकत
cyrus
नकसान
deposit
celebrity
उलट
##utiful
counter
shanti
beautiful
biswas
alleg
adhikar
extreme
wapas
surprised
दशदरोही
bohot
unfortunately
mirchi
science
tune
forgot
condemn
source
shrad
fayda
scheme
##यालय
मिसाइल
तसवीर
समपरक
excellent
diplom
ax
aay
aver
ate
dm
dyn
ec
ep
ema
emb
fing
flo
gor
jaya
lt
lime
lyn
nuclear
pv
pil
pull
rand
reta
rona
ss
sons
vh
अह
असल
इजजत
ईर
खर
गधा
घम
डि
तल
नो
नती
पकष
बको
मश
राय
लाह
लवल
शान
शकर
सअ
सपा
😡😡😡
##hs
##yani
##ev
##cap
##kata
##uuf
##mak
##षठ
##wane
##bank
##बध
##बरी
##तरा
##ोष
##वद
##वड
##पट
##zo
##थित
thug
##ators
##haps
anch
iste
##dict
##ारथ
kiy
kick
kol
remar
hee
held
dege
pred
sto
##iko
shor
परद
परदरशन
jae
##pping
maare
##ulate
pakad
paresh
rai
raised
uncle
##ract
mante
mary
marenge
banta
##pec
loose
atte
##िको
krti
exch
जाच
##ityanath
##anted
##allah
pack
envir
shad
shab
##ively
humara
medical
plat
gains
##roc
##soci
hogaya
साइ
hara
compar
guilty
board
permission
perhaps
विमान
worker
feat
solid
surren
quot
राजनत
rajas
worldwide
बहस
इनवसट
incon
जनम
##aadi
##पीकर
तरक
मरिज
honour
series
lagte
लाभ
posts
सवचछ
annaji
सीन
earned
prevail
karege
कारो
jealous
highest
अनना
paying
बरबरता
ethic
##ify
##chodi
😂😂😂😂😂😂😂
center
पडगा
sangh
airport
जलदी
कलिक
promise
promote
vac
transfer
retali
reporting
property
अरथ
मलक
बाबा
obs
##logo
looted
कपड
पलट
growing
iron
agricult
surely
broad
confused
flop
chuna
imand
latest
revenge
##बनदी
disturbed
democratic
haramkh
hearts
progress
baithe
नयाय
वादा
bhajans
safety
shakal
implementation
psy
sentence
सपरक
transactions
independence
destroyed
सदस
bewakuuf
nahee
सोनिया
khushi
hypocrisy
divided
tiwari
becomes
##agardi
festival
wipro
analys
argum
lakin
मादरच
toilet
survive
आरोप
hdfc
lux
गौरव
राहल
##सथान
pariwar
buffalo
जमीन
koshish
degree
facilities
pseudo
ambulance
struggling
uniform
culpr
पटरोल
लोकसभा
लाहौर
environment
surrender
राजनतिक
aayi
bed
bound
cup
dham
emer
fen
fish
ila
kul
len
led
male
owa
ple
phele
rd
tare
wind
yog
za
zab
zub
अच
अति
अलावा
उतार
गन
ची
चिता
चरच
छो
जह
ढढ
तन
पथ
बकार
भजा
मच
रवी
लख
लौ
लान
लिक
लात
साह
सतर
हवा
##aha
##ook
##din
##rict
##riti
##gan
##kl
##khe
##लल
##uz
##pet
##bel
##गत
##हि
##हतया
##धय
##zat
##zam
##😑😑
##चल
##उड
##😜😜
##aro
thn
##atar
##ening
ana
isnt
##ason
##ases
##urs
##adays
bear
##usion
##iced
##icks
##owers
seh
##ानक
##ानो
करगी
mehn
prak
stone
stick
stuff
shun
moving
gobar
कीजिय
##ilt
##odo
pehele
##uli
baate
wear
dos
suit
##hek
ashamed
associ
rajp
किताब
soil
joker
##rier
##rible
##usting
banaye
banwate
##ounder
usme
kho
tumh
diwali
krwa
ladies
दिमा
##वाइ
इसम
samar
saman
agreed
एकाउ
nowhere
nowadays
bolti
bhr
लोकत
teen
spir
adityanath
harsh
boys
speci
विवाह
दोषी
expiry
bharosa
janti
kami
राजसथान
##डीया
बनत
बहतर
जबाब
पहन
decisions
##well
maintain
sunil
##oooo
महान
महनत
interview
akhir
posting
सवय
drug
netaon
##back
साला
parts
borrow
monday
बिजली
कारड
smjh
##ाइयो
thru
track
traffic
चलज
paytm
indul
##cession
##चारियो
defa
defend
defame
बठा
filed
बोलन
curb
heads
दसरा
kahin
katu
fooled
ideas
marega
typ
bottom
मजबर
आराम
छोडकर
reduced
targets
efforts
selling
gaddaro
caused
##jected
rehne
motor
कततो
dekhi
dekhe
colle
##letes
pucho
claims
credibility
training
railways
arabia
foundation
चौकी
मामला
उपलब
उपयोग
enjoying
militants
cpi
western
courage
mtlb
victims
इनकम
नकसलियो
celebrate
उलल
tumlogo
नौकरी
सफल
##🎵🎵🎵🎵
##⚽⚽⚽⚽
mazhab
chapter
शासन
bhatt
मसजिद
aatankwadi
jaty
chakkar
extrem
maximum
affected
दशभकति
पतथरबाज
houses
taliban
connect
ghotala
disgusting
ishwar
##alized
kajol
replace
वयाप
sacrif
अनपढ
athletes
जिनदगी
kafir
prasad
सगठन
appeasement
gambhir
जिदगी
suicide
कमजोर
department
vigil
##जिसटर
platform
कारोबार
रवीश
aake
aankh
bala
cbi
cpec
dall
dakh
fill
ful
founder
gard
gyan
hp
hide
htm
jang
kou
kese
kons
kush
lye
mira
push
pyar
ren
rot
range
sant
tort
van
via
viv
visa
xd
zinda
zoor
आश
उर
कला
गार
चा
चत
चिल
ठाकर
नफ
पाल
पडी
फसल
बौ
बाल
बरी
मड
मका
लता
शा
सात
हट
##aab
##sl
##yog
##oom
##ober
##down
##ele
##lt
##io
##kal
##ked
##लि
##यन
##ule
##uine
##tal
##pad
##खड
##ओग
##कता
##ware
##wani
##गम
##हद
##विद
##दल
##दारी
##पता
##📢📢
##inning
##eration
inh
##dii
##ams
##amp
##ाराज
kaisa
choti
##ential
reward
karva
karnat
nag
meant
##abha
##idu
moot
mohamm
arey
##unity
##iles
jait
jaga
jaaye
jaega
##नाह
##ppa
map
macha
mahila
saved
pard
ravi
किन
uno
marr
##ounter
france
usual
khub
##िकर
laat
samjhe
padi
paak
paint
##िनी
crude
plus
gaa
bhn
badh
badly
related
rahay
comparing
brita
verse
##ायर
##load
matters
ghuss
##arsh
urine
correction
didnt
kabi
rajya
secret
perspective
बातो
##टरनट
माफ
dino
chutiyo
मरठ
serve
chit
internal
kerna
saly
purp
##िदान
##veda
infact
scen
syed
keeps
understood
design
hmari
investors
actions
jiske
jiski
traitors
turant
talked
bheja
registration
dikhaye
दिखान
indra
babu
nationalist
final
genoc
films
dhok
बोलना
sbko
hardly
lado
लडन
cares
openly
##garh
satur
retweet
tym
dusra
बलिदान
बाध
deni
putting
voters
sponser
swiss
सचना
industries
hello
जिनह
topic
camera
advoc
dekhiye
पकड
कषणा
nature
six
विदशो
review
liter
srk
jungle
massac
puppet
imagin
drive
रिचारज
karwai
lucky
limited
estate
authority
जितन
जितना
##ोकरी
javano
##acity
सविधा
मातर
कालाधन
sapna
icj
zarur
delivery
navrat
boycot
wtf
विधायक
struggle
belongs
angre
initiative
हरामी
fixed
becoming
festivals
version
controvers
manufacturing
उदयोग
पडितो
intolerance
application
रासत
शबद
राजनता
certainly
several
volume
brutal
believes
sympathy
rigveda
ukhad
october
keralites
denomination
modern
original
interfere
swaraj
गठबधन
thieves
assembly
affairs
shraddha
average
limelight
kolkata
exchange
लोकततर
html
mohammed
britain
au
aor
aish
aans
akh
aana
bye
bula
bayan
dy
dha
dkh
doge
dump
gaj
hom
ias
ira
jise
khi
kom
kne
kra
koun
kore
kbi
lord
mike
mia
mita
ox
phil
squ
tari
ved
wing
wil
yat
yak
अजी
इला
इतिहास
उड
उतर
खोज
गी
चद
चाल
चाट
चोरी
जमान
डब
तार
ताल
दह
दाल
नाल
नोकरी
फी
बतान
बगल
यानी
सज
सनी
##dr
##dom
##gg
##lu
##ns
##ming
##mies
##खोर
##गड
##वसी
##सि
##सप
##टट
##zan
##qa
##ऊगा
##🏀🏀
##♣♣
##ancy
thu
##eness
##oral
##itik
##itude
##akes
##lls
##adar
beti
bethe
kir
##icha
chali
reve
rehe
release
##yap
##yaar
naj
indira
kehta
dee
dece
dekar
prize
##abi
stra
stunt
nep
moon
mohammad
gods
कायर
कागरसी
##ilities
##नाक
##uls
pakis
pakka
welf
doos
##ategy
unhi
##ternal
bang
banege
user
##लाद
krty
जाह
aapt
terms
update
##wag
pawan
fadii
humne
hisab
medic
##ongi
##meed
##ours
##room
##road
hotel
mukh
somebody
##लीफ
advan
##कीन
box
jawahar
विद
विभाग
exposed
mader
strategy
kham
happiness
##ियर
ghos
supply
quote
तकलीफ
battle
rajneeti
dikhta
बहनो
kutton
seculars
basket
soniya
greater
greatest
तरनत
hadd
salam
बीफ
##vadi
purcha
insaniyat
कहग
कहला
निगम
desper
hmne
jiska
thrown
shift
chodo
रोटी
marketing
gadha
helpl
intent
sikho
recent
mahine
##ruction
##rukh
kahne
santi
minded
river
पागल
cease
courts
elig
followed
पीएम
stupidity
moron
murders
veer
chutiyapa
lagao
मलला
गरव
गरज
opposed
वरग
मजबरी
##venience
करोडो
mutilate
virodhi
मसलिमो
holders
बढा
extent
continu
gaddaron
rehna
sainikon
brexit
settle
motors
hitler
पहचा
असली
deserves
sensible
गिरा
गिरफतार
entertain
kursi
विरोधी
double
conditions
##hhhh
हलाला
victory
##idden
drivers
सथान
##इनिग
bullet
dreams
meeting
cpim
bhasha
particip
बमपर
arrog
arrest
परमख
building
pooch
released
कराया
encounter
zaroor
provided
breaking
drinking
काशमीर
liberal
intellectual
intellectuals
biscu
vehicle
repeated
consumer
lamba
दशदरोह
promoting
सघर
peeche
sindhu
andhbhak
withdraw
execution
mindset
jyda
बगाल
pantjali
आतमहतया
hindutva
रिकशा
beliefs
electricity
commerce
madharchod
weapons
individual
ईमानदार
ancest
analysis
मादरचोद
luxury
owaisi
छोटी
दिमाग
samarthan
specific
zoordaar
karnataka
boycott
welfare
jawaharlal
ae
ase
bon
bod
bard
cos
cars
categ
dak
dash
fab
fathers
gin
ger
hike
hidden
jig
kale
kata
kkr
lash
lick
nara
oye
pir
pity
pada
peda
sul
table
vala
vande
wha
wahe
yo
इचछ
एज
ओवसी
कव
कद
कबर
खो
खडा
गपत
घटी
छप
ता
तरा
थपप
धीर
भवि
रिश
विर
शभ
शहर
हित
##hod
##yt
##oy
##rah
##ls
##lation
##culation
##kam
##लट
##male
##खी
##कम
##राज
##रडर
##bn
##bhi
##नदर
##vations
##वय
##शिया
##एट
##मित
##फर
##चर
##चो
##चना
##😆😆
##😢😢
##😠😠
##😈😈
##any
##iny
##ald
habit
inhone
tour
isha
isne
##dicul
##akr
##asa
ander
##urance
##adhi
##ching
##icated
realize
recession
karara
heath
naaka
कराति
print
##igr
##idan
##iday
abroad
परान
jaat
jaane
jaoge
maang
maara
maja
comf
saza
bail
host
doob
sugar
##hey
rae
uns
und
hia
##race
##ckers
mans
mann
aurat
marry
bani
bandi
canada
loog
khujli
##रीम
##uded
laal
दिवस
##antly
aman
proceed
agencies
uper
muslimo
pag
pages
poison
##ाहा
sabka
yaa
##ival
cru
crimes
resources
##eeb
##ामी
##kho
bhuk
##meer
spoken
moreover
rahegi
afs
afric
seema
brilli
boost
##नीय
aai
##ायल
जोड
minimum
kisan
khao
supposed
दखकर
पाकिसतानियो
daud
जबान
tai
बदनाम
calls
##izing
##ोलन
wouldn
जानन
waters
delay
blast
cheat
honor
तमन
लाउड
##ption
##ullah
बनाय
prefer
sharing
owned
scared
scrap
##itional
rhega
जिसकी
dalits
pahuch
pahele
submit
choda
लगातार
nationalism
proph
genuine
bengali
choices
intention
dunya
किसन
##fire
heading
headed
majb
peacefully
hyder
ridicul
americans
chupa
followers
##मनट
कलया
stands
jitni
गाडी
गावो
morons
नोटबनदी
dusri
##वरड
achhi
बाट
capable
object
balki
looting
interesting
बकवास
milegi
mutilation
debit
function
virat
histor
equally
damage
formula
bhosda
sponsored
आईय
palest
index
wishes
selfish
पहचता
directly
जमलो
kurds
करवाता
conduct
सपरीम
हलपर
declar
bihari
समाजवादी
##बलिक
ससद
nearly
rasta
writing
तमहारा
bhartiya
पटल
exempt
shakti
bhashan
implemented
कॉगरस
आतकवादियो
certific
entry
mitti
सपरवाइ
midiya
tatti
devil
protesting
sustain
patience
approx
sapne
operation
buddh
icici
osama
फौजी
दौरो
judgement
mayawati
repeat
manager
पारटियो
justify
chilla
harmony
inspir
wiped
abdul
manipur
resolve
मतरालय
aggressive
gundagardi
jadhav
frustrated
फौजियो
grave
alawa
figure
shouting
reforms
staff
sambhal
ensure
subsid
skills
influence
accep
कारयकरता
witness
सिदध
kohli
bahadur
सकयलर
email
vhp
नतीजा
anchor
rajasthan
argument
अचानक
spirit
उपलबध
नफरत
jaitley
purpose
saturday
गरजएट
थपपड
भविषय
certificate
सपरवाइजर
ack
aese
aani
athe
awaz
cia
cities
code
dup
dilli
ego
hill
ik
iits
jas
jinda
jama
kot
kere
khil
mb
mout
nis
nama
paye
pump
rit
rum
rank
sali
size
tor
tut
tim
tik
valo
wall
अना
आयोग
कठ
गिन
गवर
ढर
ती
दबा
धारा
नारा
भाइयो
मम
मिट
मगल
यातरा
विस
वरत
वनद
सड
सिया
हॉ
##hal
##acy
##ear
##nta
##nadu
##यकष
##fill
##fore
##foli
##uki
##mes
##pap
##षटर
##bu
##गो
##नर
##हाल
##ोसा
##vent
##वरी
##सन
##परी
##टना
##मल
##इए
##😭😭
##😝😝
##🐣🐣
thar
##ince
##inting
##atan
##atic
##enka
hak
##itya
##itate
##leef
kicked
kach
##vember
##ete
chha
season
rechar
##yaan
##यास
hehehe
naidu
करण
करसी
steel
nepal
कोय
shot
shree
goal
##ung
##unk
##taur
##tachar
##inder
होनी
saff
saeed
##andan
asal
किए
leag
##tern
bhik
maruti
banate
arri
armi
loos
loyal
loosing
november
##लाई
divers
krenge
lac
lavel
hassan
donot
donald
##पनिक
rahen
rahta
agni
upd
sabak
fac
fais
faced
fauji
ourselves
restaur
##eek
huyi
bhoot
newspap
समारट
takat
wohi
goods
##ario
sport
##लीवड
waah
sarm
साबन
adani
guaran
evening
workers
terrir
expose
explan
feet
roy
coop
mater
##ियगा
dekhta
##ासत
बनकर
chances
barra
incidents
tact
secure
##परदाय
##saan
showed
मिली
मिलत
मिलती
back♥
blah
मरत
chehra
sunni
chick
jobless
realy
kerte
personality
sales
dram
php
सीख
बनात
बनाई
मारत
infra
scene
##badi
कहन
monet
अनक
hmara
jisko
tmc
region
businessman
gadkari
patrol
geni
download
hathi
दलो
namak
giri
maarne
sanik
आदत
डाला
fooling
production
vaise
हिदओ
ajan
wins
sochte
dusman
opposing
opposite
charging
##jection
sachin
पछा
generations
capt
missing
##kuf
walk
electron
construct
damini
जिनदा
मिशन
हालत
jaao
speeches
advance
shahrukh
पहचान
##fication
afford
कषण
natak
गिराई
beginning
claimed
banglades
sensex
considered
इसलिय
udhar
कालपनिक
slave
सथित
horse
sidha
##षटाचार
जिदा
jawaano
author
kyonki
mudde
cyber
villages
enfor
hurt
दलितो
sickular
मोहममद
कनदर
laughing
offered
tmhari
bewakoof
providing
pandits
माहौल
ghante
बॉलीवड
achievement
license
portfoli
beaten
queues
tamilnadu
nuis
videsh
managed
omg
अभिय
troops
professional
occupied
napak
praise
withdrawal
intolerant
priyan
ignorant
steal
slaughtered
olympics
ghatna
awaaz
producing
kadam
थोडा
street
fouji
lanat
established
भावना
ummid
bhonk
mlas
piece
इडियन
afraid
behaviour
unemployment
##edding
दामाद
हटाओ
अलगाववादी
सअर
##rocities
इनवसटमनट
सदसय
dhamki
prakash
rajput
एकाउट
चिलला
genocide
retweeted
straight
helpless
सघरष
category
naakaami
prophet
ridiculous
कलयाण
acknow
##परदायिक
portfolio
aust
bm
bdi
boun
bunch
cad
cab
cake
cine
cart
dd
dom
dance
eh
fre
fly
fant
fans
gas
greed
hari
hrs
ipo
ijj
ju
jah
jans
jump
kv
kdi
kri
kaya
lin
lge
math
miya
moul
nse
nuk
pink
pita
powers
rab
rho
rene
sch
sut
sall
slog
tig
tang
tension
vy
vyap
yudh
अटल
आना
आधार
ईश
उतना
